/*********************************************************************************
 * Auto-generated nrf Axon compiled neural network model header file.
 * Model Name: activity_model
 * Axon Neural Network Compiler Version: 1.2.0
 *********************************************************************************/
#ifdef __cplusplus
extern "C" {
#endif
#if (AXON_LAYER_TEST_START_LAYER<=0) && (AXON_LAYER_TEST_STOP_LAYER>=0)

const NRF_AXON_PLATFORM_BITWIDTH_UNSIGNED_TYPE cmd_buffer_activity_model_0_0[445] = {
// segment 0,length 444,Axon NN
0x1fff01bc,
0x09000080,0x0001012c,(NRF_AXON_PLATFORM_BITWIDTH_UNSIGNED_TYPE)nrf_axon_interlayer_buffer,0x0033012c,0x00040000,0x0001012c,(NRF_AXON_PLATFORM_BITWIDTH_UNSIGNED_TYPE)axon_model_const_activity_model.l00_weights,0x00330080,0x0000012c,0x00000000,(NRF_AXON_PLATFORM_BITWIDTH_UNSIGNED_TYPE)NULL,
0x040000ac,0x00010001,(NRF_AXON_PLATFORM_BITWIDTH_UNSIGNED_TYPE)((uint8_t*)(nrf_axon_interlayer_buffer)+0x12c),0x00050004,0x00000004,0x00000000,
0x030000c8,0x00010000,0x00000000,0x03010000,0x00011703,
0x01000180,0x00000003,0x00000000,
0x000001a4,0x00000000,
0x010001c8,0xc0000000,0xc0000000,
0x01000164,0xfffff12c,0x00003d4e,
0x000000d8,0x01000005,
0x000000f0,0x00000100,
0x01000164,0xfffff72d,0x000039d6,
0x01000164,0xfffff051,0x00003274,
0x01000164,0x000181cd,0x000017e1,
0x01000164,0x0002f9d7,0x00001487,
0x01000164,0xfffd7787,0x00001555,
0x01000164,0xfffff6bf,0x000031ca,
0x01000164,0xfffff338,0x000043c2,
0x01000164,0xfffd2227,0x00001a07,
0x01000164,0xfffef907,0x0000117a,
0x01000164,0x0000004f,0x0000524e,
0x01000164,0xfffff6c3,0x000049f5,
0x01000164,0x0000ab22,0x00000c07,
0x01000164,0xfffffde1,0x00004db2,
0x01000164,0xffffcaa8,0x00002f46,
0x01000164,0x000001a8,0x00005cdf,
0x01000164,0x00000c0f,0x00002b26,
0x01000164,0xfffffd32,0x00004c10,
0x01000164,0xffffdd0d,0x00002ecf,
0x01000164,0xffffffd5,0x00004c0a,
0x01000164,0xfffff825,0x0000238b,
0x01000164,0xfffffebb,0x00006a37,
0x01000164,0xffffccc8,0x00002b57,
0x01000164,0xfffffed0,0x000060c5,
0x01000164,0xfffff494,0x0000412e,
0x01000164,0xffffd927,0x000038d5,
0x01000164,0xfffd8d85,0x000018da,
0x01000164,0x00011a6f,0x0000139f,
0x01000164,0x00003385,0x00003777,
0x01000164,0xffffe099,0x00002eb4,
0x01000164,0x0002523d,0x000011fb,
0x01000164,0x00006a16,0x00001b83,
0x01000164,0xffffd414,0x0000256d,
0x01000164,0x00000109,0x000055a7,
0x01000164,0xffffe9a0,0x000037d5,
0x01000164,0x00000e84,0x00003813,
0x01000164,0x00000395,0x00002ee9,
0x01000164,0xfffd00d0,0x000010ad,
0x01000164,0xfffff4f0,0x00003831,
0x01000164,0xffffe5fc,0x0000299d,
0x01000164,0xfffff565,0x000032d9,
0x01000164,0x0003e678,0x00000d52,
0x01000164,0xfffd183e,0x00000f7b,
0x01000164,0xfffffe37,0x00005c8a,
0x01000164,0x00000d95,0x000067f4,
0x01000164,0xfffffa80,0x000056c7,
0x01000164,0x00000124,0x00005a55,
0x01000164,0xffffc1fd,0x00002c5b,
0x01000164,0xfffffa88,0x00004a85,
0x01000164,0x00001153,0x000037c7,
0x01000164,0xfffff056,0x00003215,
0x01000164,0xffffffe0,0x00006d26,
0x01000164,0x00000090,0x00004e55,
0x01000164,0xffffe7e3,0x00002813,
0x01000164,0xfffffb8f,0x00004aa8,
0x01000164,0xffffc746,0x00001dca,
0x01000164,0x00002d0f,0x00002db9,
0x01000164,0x00000ca8,0x00001517,
0x01000164,0x000000bf,0x0000488d,
0x01000164,0x0002427e,0x00000aff,
0x01000164,0xfffff7e7,0x00002725,
0x01000164,0xffff43d0,0x000019d6,
0x01000164,0xffffc206,0x00003619,
0x01000164,0xffffffa5,0x00007655,
0x01000164,0xffffd622,0x00002f50,
0x01000164,0xfffffc65,0x00002cc9,
0x01000164,0x00002221,0x00002764,
0x01000164,0x00000043,0x00004c05,
0x01000164,0xfffffe7e,0x00002fb9,
0x01000164,0xffff7b8f,0x00001949,
0x01000164,0xffffb8b9,0x00002a2b,
0x01000164,0xffffff3c,0x000058c3,
0x01000164,0xfffcaf8b,0x0000100f,
0x01000164,0xffffb430,0x00002084,
0x01000164,0xfffff19b,0x00003d3e,
0x01000164,0xffffd4aa,0x0000340a,
0x01000164,0x0000066e,0x000041f0,
0x01000164,0x0001398e,0x000018e0,
0x01000164,0xfffffe82,0x00007e90,
0x01000164,0x0000162a,0x00002414,
0x01000164,0x00032156,0x00000e7f,
0x01000164,0x00000bfd,0x00003d01,
0x01000164,0xffffef70,0x00002062,
0x01000164,0xfffff82a,0x00003b6b,
0x01000164,0xfffff9f1,0x00006082,
0x01000164,0xffffde68,0x0000293e,
0x01000164,0xffffbf75,0x0000204d,
0x01000164,0xfffff59e,0x0000426b,
0x01000164,0xffffffca,0x0000716c,
0x01000164,0xfffff706,0x0000310e,
0x01000164,0x00000062,0x000028f4,
0x01000164,0xffff56fe,0x00002320,
0x01000164,0xfffff8a7,0x0000257b,
0x01000164,0xffffdd0b,0x00002c33,
0x01000164,0xfffffe9f,0x00007aa7,
0x01000164,0xffffdee3,0x00002764,
0x01000164,0xffffdde5,0x0000418c,
0x01000164,0xffffe951,0x00003895,
0x01000164,0xffffffa8,0x00009727,
0x01000164,0x0000072c,0x000037d9,
0x01000164,0x00020805,0x00001100,
0x01000164,0x0000010c,0x00003b90,
0x01000164,0x0000033c,0x00006d12,
0x01000164,0x0000015c,0x0000634e,
0x01000164,0xfffebfb6,0x0000128f,
0x01000164,0xfffeb148,0x000013cc,
0x01000164,0xffffa55b,0x00002678,
0x01000164,0xffffe329,0x00003683,
0x01000164,0x00001479,0x00001bbc,
0x01000164,0xffffea4d,0x0000317d,
0x01000164,0xfffff789,0x00002d97,
0x01000164,0xffffec39,0x0000309b,
0x01000164,0x00000b07,0x000020c9,
0x01000164,0xffffedf6,0x00004c82,
0x01000164,0xfffff60b,0x000034e8,
0x01000164,0x0000096c,0x00004932,
0x01000164,0xfffff5a2,0x00003bc9,
0x01000164,0xffffe92e,0x00002e0c,
0x01000164,0x00000165,0x000043f1,
0x01000164,0xffffe44c,0x00002f33,
0x01000164,0x000008ea,0x0000292b,
0x01000164,0xfffe276c,0x00001735,
0x01000164,0x000017a9,0x00002dbb,
0x01000164,0x00001a48,0x00002277,
0x01000164,0xfffffd90,0x00006c73,
0x01000164,0xffffff68,0x0000478a,
0x01000164,0xffffd7ba,0x00001fda,
0x01000164,0xfffff3a3,0x000031ce,
0x07000080,0x00010200,(NRF_AXON_PLATFORM_BITWIDTH_UNSIGNED_TYPE)((uint8_t*)(nrf_axon_interlayer_buffer)+0x12c),0x00c30400,0x00000000,0x00010004,(NRF_AXON_PLATFORM_BITWIDTH_UNSIGNED_TYPE)axonpro_int8_packing_filter,0x00330001,0x00000004,
0x040000a8,0x00150000,0x00010080,(NRF_AXON_PLATFORM_BITWIDTH_UNSIGNED_TYPE)nrf_axon_interlayer_buffer,0x00030080,0x00000080,
0x000000c0,0x00000000,
0x030000c8,0x00000000,0x01040000,0x00000000,0x00000003,
0x000000d8,0x00000001,
0x000000f0,0x00000100,
};
const nrf_axon_nn_compiled_model_layer_s model_activity_model_0_0 = {
  .base = {
    .compiler_version = 0x00010200,
    .model_name = "activity_model",
    .labels = labels_activity_model,
    .inputs = {
      {// 0
        .ptr = (int8_t*)nrf_axon_interlayer_buffer,
        .dimensions = {
          .height = 1,
          .width = 300,
          .channel_cnt = 1,
          .byte_width = 1,
        },
        .quant_mult = 2297511,
        .stride = 300,
        .quant_round = 19,
        .quant_zp = 39,
        .is_external = true,
      }, // 0
    }, // inputs
    .input_cnt = 1,
    .external_input_ndx = 0,
    .output_ptr = (int8_t*)nrf_axon_interlayer_buffer,
    .packed_output_buf = NULL,

    .interlayer_buffer_needed = NRF_AXON_MODEL_ACTIVITY_MODEL_MAX_IL_BUFFER_USED,
    .psum_buffer_needed = NRF_AXON_MODEL_ACTIVITY_MODEL_MAX_PSUM_BUFFER_USED,
    .cmd_buffer_ptr = cmd_buffer_activity_model_0_0,

    .model_const_ptr = &axon_model_const_activity_model,
    .model_const_size = sizeof(axon_model_const_activity_model),
    .cmd_buffer_len = 445,
    .persistent_vars = {
      .count = 0,
    },

    .output_dimensions = {
      .height = 1,
      .width = 128,
      .channel_cnt = 1,
      .byte_width = 1,
    },
    .output_dequant_mult = 1,
    .output_dequant_round = 9,
    .output_dequant_zp = 0,
    .output_stride = 128,
    .is_layer_model = true,
    .extra_output_cnt = 0,
    .extra_outputs = NULL,
  },// .base
  .layer_ndx = 0,
  .input0_layer_ndx = -1,
  .input1_layer_ndx = -1,
};
#endif
#if (AXON_LAYER_TEST_START_LAYER<=1) && (AXON_LAYER_TEST_STOP_LAYER>=1)

const NRF_AXON_PLATFORM_BITWIDTH_UNSIGNED_TYPE cmd_buffer_activity_model_1_1[253] = {
// segment 0,length 252,Axon NN
0x1fff00fc,
0x09000080,0x00010080,(NRF_AXON_PLATFORM_BITWIDTH_UNSIGNED_TYPE)nrf_axon_interlayer_buffer,0x00330080,0x00040000,0x00010080,(NRF_AXON_PLATFORM_BITWIDTH_UNSIGNED_TYPE)axon_model_const_activity_model.l01_weights,0x00330040,0x00000080,0x00000000,(NRF_AXON_PLATFORM_BITWIDTH_UNSIGNED_TYPE)NULL,
0x040000ac,0x00010001,(NRF_AXON_PLATFORM_BITWIDTH_UNSIGNED_TYPE)((uint8_t*)(nrf_axon_interlayer_buffer)+0x80),0x00050004,0x00000004,0x00000000,
0x030000c8,0x00010000,0x00000000,0x03010000,0x00011703,
0x01000180,0x00000003,0x00000000,
0x000001a4,0x00000000,
0x010001c8,0xc0000000,0xc0000000,
0x01000164,0xfffe3080,0x0021de0f,
0x000000d8,0x01000005,
0x000000f0,0x00000100,
0x01000164,0xfffe921b,0x00030c93,
0x01000164,0xffff2a53,0x000a6cee,
0x01000164,0xffff3987,0x00274611,
0x01000164,0xfffef47a,0x00430780,
0x01000164,0xffff13fe,0x001f8007,
0x01000164,0xfff8a6dd,0x000169a1,
0x01000164,0xffffc0c4,0x000b311c,
0x01000164,0xfffb1595,0x0004e1c8,
0x01000164,0xfffbffbd,0x0001ccf5,
0x01000164,0xfffc4d7f,0x001afbad,
0x01000164,0xffff16e6,0x00347f5f,
0x01000164,0xfffed5de,0x00017e6e,
0x01000164,0xfff7754c,0x0001b7d9,
0x01000164,0xffff1a9a,0x002f9480,
0x01000164,0xfff80c65,0x00013314,
0x01000164,0xfffba9bf,0x0002964b,
0x01000164,0xfffdae33,0x00060ad7,
0x01000164,0xfffecbfb,0x001bf6da,
0x01000164,0xfffd7423,0x000c1336,
0x01000164,0xfffeb366,0x00172311,
0x01000164,0xfffefb12,0x003bbddc,
0x01000164,0xfff9036d,0x00011fe4,
0x01000164,0xffff5308,0x00214642,
0x01000164,0xfffee9e4,0x0018a24a,
0x01000164,0xfffd8d74,0x00140f19,
0x01000164,0xfffef0ea,0x0013633a,
0x01000164,0xfffe726c,0x001418db,
0x01000164,0xfff915e8,0x0001553e,
0x01000164,0xfffd4cda,0x00055f19,
0x01000164,0xfff76ce6,0x00013af6,
0x01000164,0xfffc83df,0x0003e936,
0x01000164,0xfff7acea,0x0001418a,
0x01000164,0xfff98963,0x0001f5f5,
0x01000164,0xfffefa7a,0x00355b3d,
0x01000164,0xfffc8c05,0x00057110,
0x01000164,0xfffef315,0x0011f327,
0x01000164,0xfffe45ff,0x00110b3d,
0x01000164,0xfffa1bc2,0x0002336e,
0x01000164,0xfffe9b18,0x00231e7e,
0x01000164,0xfffe028d,0x0008d53f,
0x01000164,0xfffe64b8,0x000d872a,
0x01000164,0xfffe9f6f,0x0025a102,
0x01000164,0xfffb14dc,0x0002abbd,
0x01000164,0xfff8b2ec,0x0000ede3,
0x01000164,0xfff810e9,0x00013a33,
0x01000164,0xfffe8703,0x00241305,
0x01000164,0xffffe58f,0x00013441,
0x01000164,0xfffd6f7c,0x0008c204,
0x01000164,0xfff7b869,0x00010df1,
0x01000164,0xffff9123,0x0029d9d8,
0x01000164,0xffff5ed6,0x00299a42,
0x01000164,0xfffdaf32,0x00125762,
0x01000164,0xffff53f6,0x00219e3a,
0x01000164,0xfff84c6a,0x0000f991,
0x01000164,0xfffd8b59,0x0007f4c7,
0x01000164,0xfffe7ddf,0x0012cefc,
0x01000164,0xffff0ba2,0x000e2768,
0x01000164,0xfff7feea,0x0000f7e5,
0x01000164,0xfff9d8ec,0x000159c6,
0x01000164,0xfffc1ecf,0x00107eb1,
0x01000164,0xfff8435d,0x000181c7,
0x01000164,0xfffee35e,0x0017bae8,
0x01000164,0xfff7e7ef,0x00013c53,
0x07000080,0x00010100,(NRF_AXON_PLATFORM_BITWIDTH_UNSIGNED_TYPE)((uint8_t*)(nrf_axon_interlayer_buffer)+0x80),0x01830400,0x00000000,0x00010004,(NRF_AXON_PLATFORM_BITWIDTH_UNSIGNED_TYPE)axonpro_int8_packing_filter,0x00330001,0x00000004,
0x040000a8,0x00150000,0x00010040,(NRF_AXON_PLATFORM_BITWIDTH_UNSIGNED_TYPE)nrf_axon_interlayer_buffer,0x00030040,0x00000040,
0x000000c0,0x00000000,
0x030000c8,0x00000000,0x01040000,0x00000000,0x00000003,
0x000000d8,0x00000001,
0x000000f0,0x00000100,
};
const nrf_axon_nn_compiled_model_layer_s model_activity_model_1_1 = {
  .base = {
    .compiler_version = 0x00010200,
    .model_name = "activity_model",
    .labels = labels_activity_model,
    .inputs = {
      {// 0
        .ptr = (int8_t*)nrf_axon_interlayer_buffer,
        .dimensions = {
          .height = 1,
          .width = 128,
          .channel_cnt = 1,
          .byte_width = 1,
        },
        .stride = 128,
        .is_external = false,
      }, // 0
    }, // inputs
    .input_cnt = 1,
    .external_input_ndx = -1,
    .output_ptr = (int8_t*)nrf_axon_interlayer_buffer,
    .packed_output_buf = NULL,

    .interlayer_buffer_needed = NRF_AXON_MODEL_ACTIVITY_MODEL_MAX_IL_BUFFER_USED,
    .psum_buffer_needed = NRF_AXON_MODEL_ACTIVITY_MODEL_MAX_PSUM_BUFFER_USED,
    .cmd_buffer_ptr = cmd_buffer_activity_model_1_1,

    .model_const_ptr = &axon_model_const_activity_model,
    .model_const_size = sizeof(axon_model_const_activity_model),
    .cmd_buffer_len = 253,
    .persistent_vars = {
      .count = 0,
    },

    .output_dimensions = {
      .height = 1,
      .width = 64,
      .channel_cnt = 1,
      .byte_width = 1,
    },
    .output_dequant_mult = 1,
    .output_dequant_round = 9,
    .output_dequant_zp = 0,
    .output_stride = 64,
    .is_layer_model = true,
    .extra_output_cnt = 0,
    .extra_outputs = NULL,
  },// .base
  .layer_ndx = 1,
  .input0_layer_ndx = 0,
  .input1_layer_ndx = -1,
};
#endif
#if (AXON_LAYER_TEST_START_LAYER<=2) && (AXON_LAYER_TEST_STOP_LAYER>=2)

const NRF_AXON_PLATFORM_BITWIDTH_UNSIGNED_TYPE cmd_buffer_activity_model_2_2[64] = {
// segment 0,length 63,Axon NN
0x1fff003f,
0x09000080,0x00010040,(NRF_AXON_PLATFORM_BITWIDTH_UNSIGNED_TYPE)nrf_axon_interlayer_buffer,0x00330040,0x00040000,0x00010040,(NRF_AXON_PLATFORM_BITWIDTH_UNSIGNED_TYPE)axon_model_const_activity_model.l02_weights,0x0033000a,0x00000040,0x00000000,(NRF_AXON_PLATFORM_BITWIDTH_UNSIGNED_TYPE)NULL,
0x040000ac,0x00010001,(NRF_AXON_PLATFORM_BITWIDTH_UNSIGNED_TYPE)((uint8_t*)(nrf_axon_interlayer_buffer)+0x68),0x00050004,0x00000004,0x00000000,
0x030000c8,0x00010000,0x00000000,0x03010000,0x00011505,
0x01000180,0x00000002,0x80000000,
0x000001a4,0x00000000,
0x000001cc,0x00000000,
0x01000164,0xfffe3451,0x04018880,
0x000000d8,0x01000005,
0x000000f0,0x00000100,
0x01000164,0xfffe1d9d,0x01e6596a,
0x01000164,0xfffe305c,0x054de658,
0x01000164,0xfffe0cf3,0x01fe9dd6,
0x01000164,0xfffe482f,0x02232010,
0x01000164,0xfffe1d67,0x02194c2c,
0x01000164,0xfffdfbb9,0x0281f488,
0x01000164,0xfffe46fc,0x0259abec,
0x01000164,0xfffe1870,0x0236fed4,
0x01000164,0xfffe118b,0x01f0280e,
};
const nrf_axon_nn_compiled_model_layer_s model_activity_model_2_2 = {
  .base = {
    .compiler_version = 0x00010200,
    .model_name = "activity_model",
    .labels = labels_activity_model,
    .inputs = {
      {// 0
        .ptr = (int8_t*)nrf_axon_interlayer_buffer,
        .dimensions = {
          .height = 1,
          .width = 64,
          .channel_cnt = 1,
          .byte_width = 1,
        },
        .stride = 64,
        .is_external = false,
      }, // 0
    }, // inputs
    .input_cnt = 1,
    .external_input_ndx = -1,
    .output_ptr = (int8_t*)((uint8_t*)(nrf_axon_interlayer_buffer)+0x68),
    .packed_output_buf = NULL,

    .interlayer_buffer_needed = NRF_AXON_MODEL_ACTIVITY_MODEL_MAX_IL_BUFFER_USED,
    .psum_buffer_needed = NRF_AXON_MODEL_ACTIVITY_MODEL_MAX_PSUM_BUFFER_USED,
    .cmd_buffer_ptr = cmd_buffer_activity_model_2_2,

    .model_const_ptr = &axon_model_const_activity_model,
    .model_const_size = sizeof(axon_model_const_activity_model),
    .cmd_buffer_len = 64,
    .persistent_vars = {
      .count = 0,
    },

    .output_dimensions = {
      .height = 1,
      .width = 10,
      .channel_cnt = 1,
      .byte_width = 4,
    },
    .output_dequant_mult = 1,
    .output_dequant_round = 9,
    .output_dequant_zp = 0,
    .output_stride = 40,
    .is_layer_model = true,
    .extra_output_cnt = 0,
    .extra_outputs = NULL,
  },// .base
  .layer_ndx = 2,
  .input0_layer_ndx = 1,
  .input1_layer_ndx = -1,
};
#endif
#define MODEL_activity_model_FIRST_COMPUTE_LAYER (0)
nrf_axon_nn_compiled_model_layer_s const *model_activity_model_layer_list[] = {
	#if (AXON_LAYER_TEST_START_LAYER<=0) && (AXON_LAYER_TEST_STOP_LAYER>=0)
  &model_activity_model_0_0,
#else
  NULL,
#endif
#if (AXON_LAYER_TEST_START_LAYER<=1) && (AXON_LAYER_TEST_STOP_LAYER>=1)
  &model_activity_model_1_1,
#else
  NULL,
#endif
#if (AXON_LAYER_TEST_START_LAYER<=2) && (AXON_LAYER_TEST_STOP_LAYER>=2)
  &model_activity_model_2_2,
#else
  NULL,
#endif

};

#ifdef __cplusplus
}
#endif
