/*********************************************************************************
 * Auto-generated nrf Axon compiled neural network model header file.
 * Model Name: activity_model
 * Axon Neural Network Compiler Version: 1.2.0
 *********************************************************************************/
#ifdef __cplusplus
extern "C" {
#endif
#if (AXON_LAYER_TEST_START_LAYER<=0) && (AXON_LAYER_TEST_STOP_LAYER>=0)

const NRF_AXON_PLATFORM_BITWIDTH_UNSIGNED_TYPE cmd_buffer_activity_model_0_0[253] = {
// segment 0,length 252,Axon NN
0x1fff00fc,
0x09000080,0x00010096,(NRF_AXON_PLATFORM_BITWIDTH_UNSIGNED_TYPE)nrf_axon_interlayer_buffer,0x00330096,0x00040000,0x00010096,(NRF_AXON_PLATFORM_BITWIDTH_UNSIGNED_TYPE)axon_model_const_activity_model.l00_weights,0x00330040,0x00000096,0x00000000,(NRF_AXON_PLATFORM_BITWIDTH_UNSIGNED_TYPE)NULL,
0x040000ac,0x00010001,(NRF_AXON_PLATFORM_BITWIDTH_UNSIGNED_TYPE)((uint8_t*)(nrf_axon_interlayer_buffer)+0x98),0x00050004,0x00000004,0x00000000,
0x030000c8,0x00010000,0x00000000,0x03010000,0x00011703,
0x01000180,0x00000003,0x00000000,
0x000001a4,0x00000000,
0x010001c8,0xc0000000,0xc0000000,
0x01000164,0x0000bde7,0x0000319f,
0x000000d8,0x01000005,
0x000000f0,0x00000100,
0x01000164,0xffffc19f,0x00003c47,
0x01000164,0x00017136,0x000025e4,
0x01000164,0x000129bb,0x00003c3e,
0x01000164,0x0001b2cc,0x00002dbc,
0x01000164,0x00018e1c,0x00003557,
0x01000164,0x000085b4,0x0000287e,
0x01000164,0x0001c063,0x00002f5e,
0x01000164,0xfffffe35,0x00003bb0,
0x01000164,0x0001108c,0x0000441d,
0x01000164,0x0001af62,0x00003250,
0x01000164,0x00027997,0x00002e9f,
0x01000164,0x0000004b,0x00005897,
0x01000164,0xffff1291,0x0000264e,
0x01000164,0xfffed14e,0x00002a5a,
0x01000164,0xfffeaebf,0x000033d4,
0x01000164,0x000307d9,0x00001f4c,
0x01000164,0x0001a1ad,0x00004673,
0x01000164,0x000140e3,0x00003fcf,
0x01000164,0xffff32b2,0x00004de3,
0x01000164,0x0000017e,0x000051b5,
0x01000164,0xfffe69c1,0x00002e0d,
0x01000164,0xffffeb38,0x0000241a,
0x01000164,0xfffebb4b,0x00002ec2,
0x01000164,0x00004f44,0x00002338,
0x01000164,0xfffe8a22,0x0000281d,
0x01000164,0x00000490,0x00003e2a,
0x01000164,0x00011ed5,0x00002b08,
0x01000164,0xffff49d4,0x00001e91,
0x01000164,0x00015851,0x000036d7,
0x01000164,0xfffe9063,0x00004057,
0x01000164,0x00017e53,0x0000222e,
0x01000164,0xfffeb697,0x00003563,
0x01000164,0xffff7e16,0x000047ff,
0x01000164,0x00019b48,0x00002231,
0x01000164,0x00008d37,0x00002ee6,
0x01000164,0xfffe8ccd,0x0000259e,
0x01000164,0x00001e85,0x00002b22,
0x01000164,0x000048d9,0x00002aa9,
0x01000164,0x0001d4ac,0x00004c9c,
0x01000164,0x00005518,0x00003587,
0x01000164,0xfffefe1d,0x00002984,
0x01000164,0xffffcc67,0x00003025,
0x01000164,0x0001908e,0x000059ff,
0x01000164,0xfffe9df8,0x000033fa,
0x01000164,0x000003ca,0x000036ae,
0x01000164,0x00010150,0x00003ad6,
0x01000164,0xfffe8601,0x0000443d,
0x01000164,0x00010162,0x00003f1f,
0x01000164,0xfffffc9b,0x00004dc3,
0x01000164,0xfffe5de7,0x0000449d,
0x01000164,0x00010842,0x00003314,
0x01000164,0xffffebb1,0x00002cde,
0x01000164,0x0000da33,0x00004b23,
0x01000164,0x00019d9b,0x000029da,
0x01000164,0x00023164,0x000031bd,
0x01000164,0x00017c9c,0x00005fa9,
0x01000164,0x00000a64,0x00002fd7,
0x01000164,0xfffe83fc,0x000034d6,
0x01000164,0x00019a8b,0x00004afc,
0x01000164,0xffffd5f7,0x000025ec,
0x01000164,0x0000b734,0x00003785,
0x01000164,0xffffffaa,0x000050b3,
0x01000164,0x00000064,0x0000406c,
0x07000080,0x00010100,(NRF_AXON_PLATFORM_BITWIDTH_UNSIGNED_TYPE)((uint8_t*)(nrf_axon_interlayer_buffer)+0x98),0x01830400,0x00000000,0x00010004,(NRF_AXON_PLATFORM_BITWIDTH_UNSIGNED_TYPE)axonpro_int8_packing_filter,0x00330001,0x00000004,
0x040000a8,0x00150000,0x00010040,(NRF_AXON_PLATFORM_BITWIDTH_UNSIGNED_TYPE)nrf_axon_interlayer_buffer,0x00030040,0x00000040,
0x000000c0,0x00000000,
0x030000c8,0x00000000,0x01040000,0x00000000,0x00000003,
0x000000d8,0x00000001,
0x000000f0,0x00000100,
};
const nrf_axon_nn_compiled_model_layer_s model_activity_model_0_0 = {
  .base = {
    .compiler_version = 0x00010200,
    .model_name = "activity_model",
    .labels = labels_activity_model,
    .inputs = {
      {// 0
        .ptr = (int8_t*)nrf_axon_interlayer_buffer,
        .dimensions = {
          .height = 1,
          .width = 150,
          .channel_cnt = 1,
          .byte_width = 1,
        },
        .quant_mult = 103280891,
        .stride = 150,
        .quant_round = 19,
        .quant_zp = -27,
        .is_external = true,
      }, // 0
    }, // inputs
    .input_cnt = 1,
    .external_input_ndx = 0,
    .output_ptr = (int8_t*)nrf_axon_interlayer_buffer,
    .packed_output_buf = NULL,

    .interlayer_buffer_needed = NRF_AXON_MODEL_ACTIVITY_MODEL_MAX_IL_BUFFER_USED,
    .psum_buffer_needed = NRF_AXON_MODEL_ACTIVITY_MODEL_MAX_PSUM_BUFFER_USED,
    .cmd_buffer_ptr = cmd_buffer_activity_model_0_0,

    .model_const_ptr = &axon_model_const_activity_model,
    .model_const_size = sizeof(axon_model_const_activity_model),
    .cmd_buffer_len = 253,
    .persistent_vars = {
      .count = 0,
    },

    .output_dimensions = {
      .height = 1,
      .width = 64,
      .channel_cnt = 1,
      .byte_width = 1,
    },
    .output_dequant_mult = 1,
    .output_dequant_round = 19,
    .output_dequant_zp = 0,
    .output_stride = 64,
    .is_layer_model = true,
    .extra_output_cnt = 0,
    .extra_outputs = NULL,
  },// .base
  .layer_ndx = 0,
  .input0_layer_ndx = -1,
  .input1_layer_ndx = -1,
};
#endif
#if (AXON_LAYER_TEST_START_LAYER<=1) && (AXON_LAYER_TEST_STOP_LAYER>=1)

const NRF_AXON_PLATFORM_BITWIDTH_UNSIGNED_TYPE cmd_buffer_activity_model_1_1[157] = {
// segment 0,length 156,Axon NN
0x1fff009c,
0x09000080,0x00010040,(NRF_AXON_PLATFORM_BITWIDTH_UNSIGNED_TYPE)nrf_axon_interlayer_buffer,0x00330040,0x00040000,0x00010040,(NRF_AXON_PLATFORM_BITWIDTH_UNSIGNED_TYPE)axon_model_const_activity_model.l01_weights,0x00330020,0x00000040,0x00000000,(NRF_AXON_PLATFORM_BITWIDTH_UNSIGNED_TYPE)NULL,
0x040000ac,0x00010001,(NRF_AXON_PLATFORM_BITWIDTH_UNSIGNED_TYPE)((uint8_t*)(nrf_axon_interlayer_buffer)+0x40),0x00050004,0x00000004,0x00000000,
0x030000c8,0x00010000,0x00000000,0x03010000,0x00011703,
0x01000180,0x00000003,0x00000000,
0x000001a4,0x00000000,
0x010001c8,0xc0000000,0xc0000000,
0x01000164,0xffffee07,0x00006c94,
0x000000d8,0x01000005,
0x000000f0,0x00000100,
0x01000164,0xffff8c6e,0x000095f0,
0x01000164,0x0000e9a0,0x00006ad6,
0x01000164,0x00001c63,0x00004004,
0x01000164,0xfffea94e,0x00009743,
0x01000164,0xffff6c22,0x0000938f,
0x01000164,0x0000048e,0x0000449c,
0x01000164,0x0001a3f6,0x00007868,
0x01000164,0x0000ac7d,0x00006755,
0x01000164,0xffff3615,0x00008c48,
0x01000164,0xfffe7a07,0x0000e297,
0x01000164,0x000138c9,0x00006a51,
0x01000164,0x000132dc,0x000062de,
0x01000164,0xfffe7a86,0x000101e8,
0x01000164,0x00005253,0x0000c1a0,
0x01000164,0x00001572,0x00007eb8,
0x01000164,0x00002cb5,0x00007a13,
0x01000164,0xffffca94,0x00006164,
0x01000164,0xffff7710,0x00007934,
0x01000164,0xfffe65ae,0x0000ce94,
0x01000164,0x00005363,0x000054ff,
0x01000164,0xfffe5728,0x00005ab2,
0x01000164,0x00018318,0x00008681,
0x01000164,0x0000d03c,0x00004161,
0x01000164,0x00019251,0x00006a77,
0x01000164,0xffffc98e,0x00006578,
0x01000164,0x000243ab,0x00004267,
0x01000164,0xffff6eea,0x00005f62,
0x01000164,0xffff84c7,0x0000526a,
0x01000164,0x0000afb1,0x0000936d,
0x01000164,0x00001064,0x00005921,
0x01000164,0x000174e1,0x000031bd,
0x07000080,0x00010080,(NRF_AXON_PLATFORM_BITWIDTH_UNSIGNED_TYPE)((uint8_t*)(nrf_axon_interlayer_buffer)+0x40),0x03030400,0x00000000,0x00010004,(NRF_AXON_PLATFORM_BITWIDTH_UNSIGNED_TYPE)axonpro_int8_packing_filter,0x00330001,0x00000004,
0x040000a8,0x00150000,0x00010020,(NRF_AXON_PLATFORM_BITWIDTH_UNSIGNED_TYPE)nrf_axon_interlayer_buffer,0x00030020,0x00000020,
0x000000c0,0x00000000,
0x030000c8,0x00000000,0x01040000,0x00000000,0x00000003,
0x000000d8,0x00000001,
0x000000f0,0x00000100,
};
const nrf_axon_nn_compiled_model_layer_s model_activity_model_1_1 = {
  .base = {
    .compiler_version = 0x00010200,
    .model_name = "activity_model",
    .labels = labels_activity_model,
    .inputs = {
      {// 0
        .ptr = (int8_t*)nrf_axon_interlayer_buffer,
        .dimensions = {
          .height = 1,
          .width = 64,
          .channel_cnt = 1,
          .byte_width = 1,
        },
        .stride = 64,
        .is_external = false,
      }, // 0
    }, // inputs
    .input_cnt = 1,
    .external_input_ndx = -1,
    .output_ptr = (int8_t*)nrf_axon_interlayer_buffer,
    .packed_output_buf = NULL,

    .interlayer_buffer_needed = NRF_AXON_MODEL_ACTIVITY_MODEL_MAX_IL_BUFFER_USED,
    .psum_buffer_needed = NRF_AXON_MODEL_ACTIVITY_MODEL_MAX_PSUM_BUFFER_USED,
    .cmd_buffer_ptr = cmd_buffer_activity_model_1_1,

    .model_const_ptr = &axon_model_const_activity_model,
    .model_const_size = sizeof(axon_model_const_activity_model),
    .cmd_buffer_len = 157,
    .persistent_vars = {
      .count = 0,
    },

    .output_dimensions = {
      .height = 1,
      .width = 32,
      .channel_cnt = 1,
      .byte_width = 1,
    },
    .output_dequant_mult = 1,
    .output_dequant_round = 19,
    .output_dequant_zp = 0,
    .output_stride = 32,
    .is_layer_model = true,
    .extra_output_cnt = 0,
    .extra_outputs = NULL,
  },// .base
  .layer_ndx = 1,
  .input0_layer_ndx = 0,
  .input1_layer_ndx = -1,
};
#endif
#if (AXON_LAYER_TEST_START_LAYER<=2) && (AXON_LAYER_TEST_STOP_LAYER>=2)

const NRF_AXON_PLATFORM_BITWIDTH_UNSIGNED_TYPE cmd_buffer_activity_model_2_2[55] = {
// segment 0,length 54,Axon NN
0x1fff0036,
0x09000080,0x00010020,(NRF_AXON_PLATFORM_BITWIDTH_UNSIGNED_TYPE)nrf_axon_interlayer_buffer,0x00330020,0x00040000,0x00010020,(NRF_AXON_PLATFORM_BITWIDTH_UNSIGNED_TYPE)axon_model_const_activity_model.l02_weights,0x00330007,0x00000020,0x00000000,(NRF_AXON_PLATFORM_BITWIDTH_UNSIGNED_TYPE)NULL,
0x040000ac,0x00010001,(NRF_AXON_PLATFORM_BITWIDTH_UNSIGNED_TYPE)((uint8_t*)(nrf_axon_interlayer_buffer)+0x3c),0x00050004,0x00000004,0x00000000,
0x030000c8,0x00010000,0x00000000,0x03010000,0x00010b05,
0x01000180,0x00000002,0x80000000,
0x000001a4,0x00000000,
0x000001cc,0x00000000,
0x01000164,0xffffb622,0x00082fec,
0x000000d8,0x01000005,
0x000000f0,0x00000100,
0x01000164,0xffffa0c1,0x000a1b42,
0x01000164,0x000058b1,0x00091d3d,
0x01000164,0xffffe4af,0x000c1cab,
0x01000164,0x0000666d,0x00085509,
0x01000164,0xffff6c4d,0x000897e1,
0x01000164,0xffffd720,0x000670a3,
};
const nrf_axon_nn_compiled_model_layer_s model_activity_model_2_2 = {
  .base = {
    .compiler_version = 0x00010200,
    .model_name = "activity_model",
    .labels = labels_activity_model,
    .inputs = {
      {// 0
        .ptr = (int8_t*)nrf_axon_interlayer_buffer,
        .dimensions = {
          .height = 1,
          .width = 32,
          .channel_cnt = 1,
          .byte_width = 1,
        },
        .stride = 32,
        .is_external = false,
      }, // 0
    }, // inputs
    .input_cnt = 1,
    .external_input_ndx = -1,
    .output_ptr = (int8_t*)((uint8_t*)(nrf_axon_interlayer_buffer)+0x3c),
    .packed_output_buf = NULL,

    .interlayer_buffer_needed = NRF_AXON_MODEL_ACTIVITY_MODEL_MAX_IL_BUFFER_USED,
    .psum_buffer_needed = NRF_AXON_MODEL_ACTIVITY_MODEL_MAX_PSUM_BUFFER_USED,
    .cmd_buffer_ptr = cmd_buffer_activity_model_2_2,

    .model_const_ptr = &axon_model_const_activity_model,
    .model_const_size = sizeof(axon_model_const_activity_model),
    .cmd_buffer_len = 55,
    .persistent_vars = {
      .count = 0,
    },

    .output_dimensions = {
      .height = 1,
      .width = 7,
      .channel_cnt = 1,
      .byte_width = 4,
    },
    .output_dequant_mult = 1,
    .output_dequant_round = 19,
    .output_dequant_zp = 0,
    .output_stride = 28,
    .is_layer_model = true,
    .extra_output_cnt = 0,
    .extra_outputs = NULL,
  },// .base
  .layer_ndx = 2,
  .input0_layer_ndx = 1,
  .input1_layer_ndx = -1,
};
#endif
#define MODEL_activity_model_FIRST_COMPUTE_LAYER (0)
nrf_axon_nn_compiled_model_layer_s const *model_activity_model_layer_list[] = {
	#if (AXON_LAYER_TEST_START_LAYER<=0) && (AXON_LAYER_TEST_STOP_LAYER>=0)
  &model_activity_model_0_0,
#else
  NULL,
#endif
#if (AXON_LAYER_TEST_START_LAYER<=1) && (AXON_LAYER_TEST_STOP_LAYER>=1)
  &model_activity_model_1_1,
#else
  NULL,
#endif
#if (AXON_LAYER_TEST_START_LAYER<=2) && (AXON_LAYER_TEST_STOP_LAYER>=2)
  &model_activity_model_2_2,
#else
  NULL,
#endif

};

#ifdef __cplusplus
}
#endif
